1000000110111011
0101110001001111
0100101110111010
0100000111010111
0011101100011000
0011011000011101
0011001000111110
0010111100011111
0010110010001001
0010101001011001
0010100001110111
0010011011010010
0010010101011111
0010010000010101
0010001011101100
0010000111011111
0010000011101011
0010000000001011
0001111100111101
0001111001111110
0001110111001110
0001110100101001
0001110010001111
0001110000000000
0001101101111000
0001101011111001
0001101010000001
0001101000001111
0001100110100011
0001100100111100
0001100011011011
0001100001111110
0001100000100101
0001011111010001
0001011110000000
0001011100110010
0001011011101000
0001011010100000
0001011001011011
0001011000011001
0001010111011001
0001010110011100
0001010101100000
0001010100100111
0001010011110000
0001010010111010
0001010010000110
0001010001010100
0001010000100011
0001001111110100
0001001111000110
0001001110011010
0001001101101110
0001001101000100
0001001100011011
0001001011110100
0001001011001101
0001001010100111
0001001010000010
0001001001011110
0001001000111011
0001001000011001
0001000111111000
0001000111010111
0001000110110111
0001000110011000
0001000101111010
0001000101011100
0001000100111111
0001000100100011
0001000100000111
0001000011101100
0001000011010001
0001000010110111
0001000010011101
0001000010000100
0001000001101011
0001000001010011
0001000000111011
0001000000100100
0001000000001101
0000111111110111
0000111111100001
0000111111001011
0000111110110110
0000111110100001
0000111110001100
0000111101111000
0000111101100100
0000111101010001
0000111100111101
0000111100101010
0000111100011000
0000111100000110
0000111011110100
0000111011100010
0000111011010000
0000111010111111
0000111010101110
0000111010011110
0000111010001101
0000111001111101
0000111001101101
0000111001011101
0000111001001110
0000111000111110
0000111000101111
0000111000100001
0000111000010010
0000111000000011
0000110111110101
0000110111100111
0000110111011001
0000110111001011
0000110110111110
0000110110110001
0000110110100011
0000110110010110
0000110110001001
0000110101111101
0000110101110000
0000110101100100
0000110101011000
0000110101001011
0000110100111111
0000110100110100
0000110100101000
0000110100011100
0000110100010001
0000110100000110
0000110011111011
0000110011110000
0000110011100101
0000110011011010
0000110011001111
0000110011000101
0000110010111010
0000110010110000
0000110010100110
0000110010011100
0000110010010010
0000110010001000
0000110001111110
0000110001110100
0000110001101011
0000110001100001
0000110001011000
0000110001001111
0000110001000101
0000110000111100
0000110000110011
0000110000101010
0000110000100001
0000110000011001
0000110000010000
0000110000000111
0000101111111111
0000101111110110
0000101111101110
0000101111100110
0000101111011110
0000101111010101
0000101111001101
0000101111000101
0000101110111101
0000101110110110
0000101110101110
0000101110100110
0000101110011111
0000101110010111
0000101110001111
0000101110001000
0000101110000001
0000101101111001
0000101101110010
0000101101101011
0000101101100100
0000101101011101
0000101101010110
0000101101001111
0000101101001000
0000101101000001
0000101100111010
0000101100110011
0000101100101101
0000101100100110
0000101100100000
0000101100011001
0000101100010011
0000101100001100
0000101100000110
0000101100000000
0000101011111001
0000101011110011
0000101011101101
0000101011100111
0000101011100001
0000101011011011
0000101011010101
0000101011001111
0000101011001001
0000101011000011
0000101010111101
0000101010110111
0000101010110010
0000101010101100
0000101010100110
0000101010100001
0000101010011011
0000101010010101
0000101010010000
0000101010001010
0000101010000101
0000101010000000
0000101001111010
0000101001110101
0000101001110000
0000101001101011
0000101001100101
0000101001100000
0000101001011011
0000101001010110
0000101001010001
0000101001001100
0000101001000111
0000101001000010
0000101000111101
0000101000111000
0000101000110011
0000101000101110
0000101000101001
0000101000100101
0000101000100000
0000101000011011
0000101000010111
0000101000010010
0000101000001101
0000101000001001
0000101000000100
0000101000000000
0000100111111011
0000100111110110
0000100111110010
0000100111101110
0000100111101001
0000100111100101
0000100111100000
0000100111011100
0000100111011000
0000100111010100
0000100111001111
0000100111001011
0000100111000111
0000100111000011
0000100110111110
0000100110111010
0000100110110110
0000100110110010
0000100110101110
0000100110101010
0000100110100110
0000100110100010
0000100110011110
0000100110011010
0000100110010110
0000100110010010
0000100110001110
0000100110001010
0000100110000111
0000100110000011
0000100101111111
0000100101111011
0000100101110111
0000100101110100
0000100101110000
0000100101101100
0000100101101001
0000100101100101
0000100101100001
0000100101011110
0000100101011010
0000100101010110
0000100101010011
0000100101001111
0000100101001100
0000100101001000
0000100101000101
0000100101000001
0000100100111110
0000100100111010
0000100100110111
0000100100110100
0000100100110000
0000100100101101
0000100100101001
0000100100100110
0000100100100011
0000100100011111
0000100100011100
0000100100011001
0000100100010110
0000100100010010
0000100100001111
0000100100001100
0000100100001001
0000100100000110
0000100100000010
0000100011111111
0000100011111100
0000100011111001
0000100011110110
0000100011110011
0000100011110000
0000100011101101
0000100011101010
0000100011100111
0000100011100100
0000100011100001
0000100011011110
0000100011011011
0000100011011000
0000100011010101
0000100011010010
0000100011001111
0000100011001100
0000100011001001
0000100011000110
0000100011000011
0000100011000000
0000100010111101
0000100010111011
0000100010111000
0000100010110101
0000100010110010
0000100010101111
0000100010101101
0000100010101010
0000100010100111
0000100010100100
0000100010100010
0000100010011111
0000100010011100
0000100010011001
0000100010010111
0000100010010100
0000100010010001
0000100010001111
0000100010001100
0000100010001010
0000100010000111
0000100010000100
0000100010000010
0000100001111111
0000100001111101
0000100001111010
0000100001110111
0000100001110101
0000100001110010
0000100001110000
0000100001101101
0000100001101011
0000100001101000
0000100001100110
0000100001100011
0000100001100001
0000100001011110
0000100001011100
0000100001011010
0000100001010111
0000100001010101
0000100001010010
0000100001010000
0000100001001110
0000100001001011
0000100001001001
0000100001000110
0000100001000100
0000100001000010
0000100000111111
0000100000111101
0000100000111011
0000100000111001
0000100000110110
0000100000110100
0000100000110010
0000100000101111
0000100000101101
0000100000101011
0000100000101001
0000100000100110
0000100000100100
0000100000100010
0000100000100000
0000100000011110
0000100000011011
0000100000011001
0000100000010111
0000100000010101
0000100000010011
0000100000010000
0000100000001110
0000100000001100
0000100000001010
0000100000001000
0000100000000110
0000100000000100
0000100000000010
0000100000000000
0000011111111101
0000011111111011
0000011111111001
0000011111110111
0000011111110101
0000011111110011
0000011111110001
0000011111101111
0000011111101101
0000011111101011
0000011111101001
0000011111100111
0000011111100101
0000011111100011
0000011111100001
0000011111011111
0000011111011101
0000011111011011
0000011111011001
0000011111010111
0000011111010101
0000011111010011
0000011111010001
0000011111001111
0000011111001101
0000011111001011
0000011111001010
0000011111001000
0000011111000110
0000011111000100
0000011111000010
0000011111000000
0000011110111110
0000011110111100
0000011110111011
0000011110111001
0000011110110111
0000011110110101
0000011110110011
0000011110110001
0000011110101111
0000011110101110
0000011110101100
0000011110101010
0000011110101000
0000011110100110
0000011110100101
0000011110100011
0000011110100001
0000011110011111
0000011110011110
0000011110011100
0000011110011010
0000011110011000
0000011110010111
0000011110010101
0000011110010011
0000011110010001
0000011110010000
0000011110001110
0000011110001100
0000011110001010
0000011110001001
0000011110000111
0000011110000101
0000011110000100
0000011110000010
0000011110000000
0000011101111111
0000011101111101
0000011101111011
0000011101111010
0000011101111000
0000011101110110
0000011101110101
0000011101110011
0000011101110001
0000011101110000
0000011101101110
0000011101101101
0000011101101011
0000011101101001
0000011101101000
0000011101100110
0000011101100101
0000011101100011
0000011101100001
0000011101100000
0000011101011110
0000011101011101
0000011101011011
0000011101011010
0000011101011000
0000011101010110
0000011101010101
0000011101010011
0000011101010010
0000011101010000
0000011101001111
0000011101001101
0000011101001100
0000011101001010
0000011101001001
0000011101000111
0000011101000110
0000011101000100
0000011101000011
0000011101000001
0000011101000000
0000011100111110
0000011100111101
0000011100111011
0000011100111010
0000011100111000
0000011100110111
0000011100110101
0000011100110100
0000011100110010
0000011100110001
0000011100101111
0000011100101110
0000011100101101
0000011100101011
0000011100101010
0000011100101000
0000011100100111
0000011100100101
0000011100100100
0000011100100011
0000011100100001
0000011100100000
0000011100011110
0000011100011101
0000011100011100
0000011100011010
0000011100011001
0000011100010111
0000011100010110
0000011100010101
0000011100010011
0000011100010010
0000011100010001
0000011100001111
0000011100001110
0000011100001101
0000011100001011
0000011100001010
0000011100001000
0000011100000111
0000011100000110
0000011100000100
0000011100000011
0000011100000010
0000011100000001
0000011011111111
0000011011111110
0000011011111101
0000011011111011
0000011011111010
0000011011111001
0000011011110111
0000011011110110
0000011011110101
0000011011110011
0000011011110010
0000011011110001
0000011011110000
0000011011101110
0000011011101101
0000011011101100
0000011011101011
0000011011101001
0000011011101000
0000011011100111
0000011011100101
0000011011100100
0000011011100011
0000011011100010
0000011011100000
0000011011011111
0000011011011110
0000011011011101
0000011011011100
0000011011011010
0000011011011001
0000011011011000
0000011011010111
0000011011010101
0000011011010100
0000011011010011
0000011011010010
0000011011010001
0000011011001111
0000011011001110
0000011011001101
0000011011001100
0000011011001011
0000011011001001
0000011011001000
0000011011000111
0000011011000110
0000011011000101
0000011011000011
0000011011000010
0000011011000001
0000011011000000
0000011010111111
0000011010111110
0000011010111100
0000011010111011
0000011010111010
0000011010111001
0000011010111000
0000011010110111
0000011010110110
0000011010110100
0000011010110011
0000011010110010
0000011010110001
0000011010110000
0000011010101111
0000011010101110
0000011010101101
0000011010101011
0000011010101010
0000011010101001
0000011010101000
0000011010100111
0000011010100110
0000011010100101
0000011010100100
0000011010100011
0000011010100001
0000011010100000
0000011010011111
0000011010011110
0000011010011101
0000011010011100
0000011010011011
0000011010011010
0000011010011001
0000011010011000
0000011010010111
0000011010010101
0000011010010100
0000011010010011
0000011010010010
0000011010010001
0000011010010000
0000011010001111
0000011010001110
0000011010001101
0000011010001100
0000011010001011
0000011010001010
0000011010001001
0000011010001000
0000011010000111
0000011010000110
0000011010000101
0000011010000100
0000011010000011
0000011010000010
0000011010000001
0000011001111111
0000011001111110
0000011001111101
0000011001111100
0000011001111011
0000011001111010
0000011001111001
0000011001111000
0000011001110111
0000011001110110
0000011001110101
0000011001110100
0000011001110011
0000011001110010
0000011001110001
0000011001110000
0000011001101111
0000011001101110
0000011001101101
0000011001101100
0000011001101011
0000011001101010
0000011001101001
0000011001101000
0000011001100111
0000011001100111
0000011001100110
0000011001100101
0000011001100100
0000011001100011
0000011001100010
0000011001100001
0000011001100000
0000011001011111
0000011001011110
0000011001011101
0000011001011100
0000011001011011
0000011001011010
0000011001011001
0000011001011000
0000011001010111
0000011001010110
0000011001010101
0000011001010100
0000011001010011
0000011001010010
0000011001010010
0000011001010001
0000011001010000
0000011001001111
0000011001001110
0000011001001101
0000011001001100
0000011001001011
0000011001001010
0000011001001001
0000011001001000
0000011001000111
0000011001000110
0000011001000110
0000011001000101
0000011001000100
0000011001000011
0000011001000010
0000011001000001
0000011001000000
0000011000111111
0000011000111110
0000011000111101
0000011000111101
0000011000111100
0000011000111011
0000011000111010
0000011000111001
0000011000111000
0000011000110111
0000011000110110
0000011000110101
0000011000110101
0000011000110100
0000011000110011
0000011000110010
0000011000110001
0000011000110000
0000011000101111
0000011000101110
0000011000101110
0000011000101101
0000011000101100
0000011000101011
0000011000101010
0000011000101001
0000011000101000
0000011000101000
0000011000100111
0000011000100110
0000011000100101
0000011000100100
0000011000100011
0000011000100011
0000011000100010
0000011000100001
0000011000100000
0000011000011111
0000011000011110
0000011000011101
0000011000011101
0000011000011100
0000011000011011
0000011000011010
0000011000011001
0000011000011000
0000011000011000
0000011000010111
0000011000010110
0000011000010101
0000011000010100
0000011000010100
0000011000010011
0000011000010010
0000011000010001
0000011000010000
0000011000001111
0000011000001111
0000011000001110
0000011000001101
0000011000001100
0000011000001011
0000011000001011
0000011000001010
0000011000001001
0000011000001000
0000011000000111
0000011000000111
0000011000000110
0000011000000101
0000011000000100
0000011000000011
0000011000000011
0000011000000010
0000011000000001
0000011000000000
0000011000000000
0000010111111111
0000010111111110
0000010111111101
0000010111111100
0000010111111100
0000010111111011
0000010111111010
0000010111111001
0000010111111000
0000010111111000
0000010111110111
0000010111110110
0000010111110101
0000010111110101
0000010111110100
0000010111110011
0000010111110010
0000010111110010
0000010111110001
0000010111110000
0000010111101111
0000010111101111
0000010111101110
0000010111101101
0000010111101100
0000010111101100
0000010111101011
0000010111101010
0000010111101001
0000010111101001
0000010111101000
0000010111100111
0000010111100110
0000010111100110
0000010111100101
0000010111100100
0000010111100011
0000010111100011
0000010111100010
0000010111100001
0000010111100000
0000010111100000
0000010111011111
0000010111011110
0000010111011101
0000010111011101
0000010111011100
0000010111011011
0000010111011011
0000010111011010
0000010111011001
0000010111011000
0000010111011000
0000010111010111
0000010111010110
0000010111010110
0000010111010101
0000010111010100
0000010111010011
0000010111010011
0000010111010010
0000010111010001
0000010111010001
0000010111010000
0000010111001111
0000010111001110
0000010111001110
0000010111001101
0000010111001100
0000010111001100
0000010111001011
0000010111001010
0000010111001010
0000010111001001
0000010111001000
0000010111000111
0000010111000111
0000010111000110
0000010111000101
0000010111000101
0000010111000100
0000010111000011
0000010111000011
0000010111000010
0000010111000001
0000010111000001
0000010111000000
0000010110111111
0000010110111110
0000010110111110
0000010110111101
0000010110111100
0000010110111100
0000010110111011
0000010110111010
0000010110111010
0000010110111001
0000010110111000
0000010110111000
0000010110110111
0000010110110110
0000010110110110
0000010110110101
0000010110110100
0000010110110100
0000010110110011
0000010110110010
0000010110110010
0000010110110001
0000010110110000
0000010110110000
0000010110101111
0000010110101110
0000010110101110
0000010110101101
0000010110101100
0000010110101100
0000010110101011
0000010110101011
0000010110101010
0000010110101001
0000010110101001
0000010110101000
0000010110100111
0000010110100111
0000010110100110
0000010110100101
0000010110100101
0000010110100100
0000010110100011
0000010110100011
0000010110100010
0000010110100001
0000010110100001
0000010110100000
0000010110100000
0000010110011111
0000010110011110
0000010110011110
0000010110011101
0000010110011100
0000010110011100
0000010110011011
0000010110011011
0000010110011010
0000010110011001
0000010110011001
0000010110011000
0000010110010111
0000010110010111
0000010110010110
0000010110010110
0000010110010101
0000010110010100
0000010110010100
0000010110010011
0000010110010010
0000010110010010
0000010110010001
0000010110010001
0000010110010000
0000010110001111
0000010110001111
0000010110001110
0000010110001110
0000010110001101
0000010110001100
0000010110001100
0000010110001011
0000010110001010
0000010110001010
0000010110001001
0000010110001001
0000010110001000
0000010110000111
0000010110000111
0000010110000110
0000010110000110
0000010110000101
0000010110000100
0000010110000100
0000010110000011
0000010110000011
0000010110000010
0000010110000001
0000010110000001
0000010110000000
0000010110000000
0000010101111111
0000010101111110
0000010101111110
0000010101111101
0000010101111101
0000010101111100
0000010101111100
0000010101111011
0000010101111010
0000010101111010
0000010101111001
0000010101111001
0000010101111000
0000010101110111
0000010101110111
0000010101110110
0000010101110110
0000010101110101
0000010101110101
0000010101110100
0000010101110011
0000010101110011
0000010101110010
0000010101110010
0000010101110001
0000010101110001
0000010101110000
0000010101101111
0000010101101111
0000010101101110
0000010101101110
0000010101101101
0000010101101101
0000010101101100
0000010101101011
0000010101101011
0000010101101010
0000010101101010
0000010101101001
0000010101101001
0000010101101000
0000010101100111
0000010101100111
0000010101100110
0000010101100110
0000010101100101
0000010101100101
0000010101100100
0000010101100100
0000010101100011
0000010101100010
0000010101100010
0000010101100001
0000010101100001
0000010101100000
0000010101100000
0000010101011111
0000010101011111
0000010101011110
0000010101011110
0000010101011101
0000010101011100
0000010101011100
0000010101011011
0000010101011011
0000010101011010
0000010101011010
0000010101011001
0000010101011001
0000010101011000
0000010101011000
0000010101010111
0000010101010110
0000010101010110
0000010101010101
0000010101010101
0000010101010100
0000010101010100
0000010101010011
0000010101010011
0000010101010010
0000010101010010
0000010101010001
0000010101010001
0000010101010000
0000010101001111
0000010101001111
0000010101001110
0000010101001110
0000010101001101
0000010101001101
0000010101001100
0000010101001100
0000010101001011
0000010101001011
0000010101001010
0000010101001010
0000010101001001
0000010101001001
0000010101001000
0000010101001000
0000010101000111
0000010101000111
0000010101000110
0000010101000110
0000010101000101
0000010101000100
0000010101000100
0000010101000011
0000010101000011
0000010101000010
0000010101000010
0000010101000001
0000010101000001
0000010101000000
0000010101000000
0000010100111111
0000010100111111
0000010100111110
0000010100111110
0000010100111101
0000010100111101
0000010100111100
0000010100111100
0000010100111011
0000010100111011
0000010100111010
0000010100111010
0000010100111001
0000010100111001
0000010100111000
0000010100111000
0000010100110111
0000010100110111
0000010100110110
0000010100110110
0000010100110101
0000010100110101
0000010100110100
0000010100110100
0000010100110011
0000010100110011
0000010100110010
0000010100110010
0000010100110001
0000010100110001
0000010100110000
0000010100110000
0000010100101111
0000010100101111
0000010100101110
0000010100101110
0000010100101101
0000010100101101
0000010100101100
0000010100101100
0000010100101011
0000010100101011
0000010100101010
0000010100101010
0000010100101001
0000010100101001
0000010100101000
0000010100101000
0000010100100111
0000010100100111
0000010100100110
0000010100100110
0000010100100110
0000010100100101
0000010100100101
0000010100100100
0000010100100100
0000010100100011
0000010100100011
0000010100100010
0000010100100010
0000010100100001
0000010100100001
0000010100100000
0000010100100000
0000010100011111
0000010100011111
0000010100011110
0000010100011110
0000010100011101
0000010100011101
0000010100011100
0000010100011100
0000010100011100
0000010100011011
0000010100011011
0000010100011010
0000010100011010
0000010100011001
0000010100011001
0000010100011000
0000010100011000
0000010100010111
0000010100010111
0000010100010110
0000010100010110
0000010100010101
0000010100010101
0000010100010100
0000010100010100
0000010100010100
0000010100010011
0000010100010011
0000010100010010
0000010100010010
0000010100010001
0000010100010001
0000010100010000
0000010100010000
0000010100001111
0000010100001111
0000010100001111
0000010100001110
0000010100001110
0000010100001101
0000010100001101
0000010100001100
0000010100001100
0000010100001011
0000010100001011
0000010100001010
0000010100001010
0000010100001010
0000010100001001
0000010100001001
0000010100001000
0000010100001000
0000010100000111
0000010100000111
0000010100000110
0000010100000110
0000010100000101
0000010100000101
0000010100000101
0000010100000100
0000010100000100
0000010100000011
0000010100000011
0000010100000010
0000010100000010
0000010100000001
0000010100000001
0000010100000001
0000010100000000
0000010100000000
0000010011111111
0000010011111111
0000010011111110
0000010011111110
0000010011111101
0000010011111101
0000010011111101
0000010011111100
0000010011111100
0000010011111011
0000010011111011
0000010011111010
0000010011111010
0000010011111010
0000010011111001
0000010011111001
0000010011111000
0000010011111000
0000010011110111
0000010011110111
0000010011110110
0000010011110110
0000010011110110
0000010011110101
0000010011110101
0000010011110100
0000010011110100
0000010011110011
0000010011110011
0000010011110011
0000010011110010
0000010011110010
0000010011110001
0000010011110001
0000010011110000
0000010011110000
0000010011110000
0000010011101111
0000010011101111
0000010011101110
0000010011101110
0000010011101101
0000010011101101
0000010011101101
0000010011101100
0000010011101100
0000010011101011
0000010011101011
0000010011101011
0000010011101010
0000010011101010
0000010011101001
0000010011101001
0000010011101000
0000010011101000
0000010011101000
0000010011100111
0000010011100111
0000010011100110
0000010011100110
0000010011100110
0000010011100101
0000010011100101
0000010011100100
0000010011100100
0000010011100011
0000010011100011
0000010011100011
0000010011100010
0000010011100010
0000010011100001
0000010011100001
0000010011100001
0000010011100000
0000010011100000
0000010011011111
0000010011011111
0000010011011110
0000010011011110
0000010011011110
0000010011011101
0000010011011101
0000010011011100
0000010011011100
0000010011011100
0000010011011011
0000010011011011
0000010011011010
0000010011011010
0000010011011010
0000010011011001
0000010011011001
0000010011011000
0000010011011000
0000010011011000
0000010011010111
0000010011010111
0000010011010110
0000010011010110
0000010011010110
0000010011010101
0000010011010101
0000010011010100
0000010011010100
0000010011010100
0000010011010011
0000010011010011
0000010011010010
0000010011010010
0000010011010010
0000010011010001
0000010011010001
0000010011010000
0000010011010000
0000010011010000
0000010011001111
0000010011001111
0000010011001110
0000010011001110
0000010011001110
0000010011001101
0000010011001101
0000010011001100
0000010011001100
0000010011001100
0000010011001011
0000010011001011
0000010011001010
0000010011001010
0000010011001010
0000010011001001
0000010011001001
0000010011001001
0000010011001000
0000010011001000
0000010011000111
0000010011000111
0000010011000111
0000010011000110
0000010011000110
0000010011000101
0000010011000101
0000010011000101
0000010011000100
0000010011000100
0000010011000100
0000010011000011
0000010011000011
0000010011000010
0000010011000010
0000010011000010
0000010011000001
0000010011000001
0000010011000000
0000010011000000
0000010011000000
0000010010111111
0000010010111111
0000010010111111
0000010010111110
0000010010111110
0000010010111101
0000010010111101
0000010010111101
0000010010111100
0000010010111100
0000010010111011
0000010010111011
0000010010111011
0000010010111010
0000010010111010
0000010010111010
0000010010111001
0000010010111001
0000010010111000
0000010010111000
0000010010111000
0000010010110111
0000010010110111
0000010010110111
0000010010110110
0000010010110110
0000010010110101
0000010010110101
0000010010110101
0000010010110100
0000010010110100
0000010010110100
0000010010110011
0000010010110011
0000010010110011
0000010010110010
0000010010110010
0000010010110001
0000010010110001
0000010010110001
0000010010110000
0000010010110000
0000010010110000
0000010010101111
0000010010101111
0000010010101110
0000010010101110
0000010010101110
0000010010101101
0000010010101101
0000010010101101
0000010010101100
0000010010101100
0000010010101100
0000010010101011
0000010010101011
0000010010101010
0000010010101010
0000010010101010
0000010010101001
0000010010101001
0000010010101001
0000010010101000
0000010010101000
0000010010101000
0000010010100111
0000010010100111
0000010010100110
0000010010100110
0000010010100110
0000010010100101
0000010010100101
0000010010100101
0000010010100100
0000010010100100
0000010010100100
0000010010100011
0000010010100011
0000010010100011
0000010010100010
0000010010100010
0000010010100001
0000010010100001
0000010010100001
0000010010100000
0000010010100000
0000010010100000
0000010010011111
0000010010011111
0000010010011111
0000010010011110
0000010010011110
0000010010011110
0000010010011101
0000010010011101
0000010010011101
0000010010011100
0000010010011100
0000010010011011
0000010010011011
0000010010011011
0000010010011010
0000010010011010
0000010010011010
0000010010011001
0000010010011001
0000010010011001
0000010010011000
0000010010011000
0000010010011000
0000010010010111
0000010010010111
0000010010010111
0000010010010110
0000010010010110
0000010010010110
0000010010010101
0000010010010101
0000010010010100
0000010010010100
0000010010010100
0000010010010011
0000010010010011
0000010010010011
0000010010010010
0000010010010010
0000010010010010
0000010010010001
0000010010010001
0000010010010001
0000010010010000
0000010010010000
0000010010010000
0000010010001111
0000010010001111
0000010010001111
0000010010001110
0000010010001110
0000010010001110
0000010010001101
0000010010001101
0000010010001101
0000010010001100
0000010010001100
0000010010001100
0000010010001011
0000010010001011
0000010010001011
0000010010001010
0000010010001010
0000010010001010
0000010010001001
0000010010001001
0000010010001001
0000010010001000
0000010010001000
0000010010001000
0000010010000111
0000010010000111
0000010010000111
0000010010000110
0000010010000110
0000010010000110
0000010010000101
0000010010000101
0000010010000101
0000010010000100
0000010010000100
0000010010000100
0000010010000011
0000010010000011
0000010010000011
0000010010000010
0000010010000010
0000010010000010
0000010010000001
0000010010000001
0000010010000001
0000010010000000
0000010010000000
0000010010000000
0000010001111111
0000010001111111
0000010001111111
0000010001111110
0000010001111110
0000010001111110
0000010001111101
0000010001111101
0000010001111101
0000010001111100
0000010001111100
0000010001111100
0000010001111011
0000010001111011
0000010001111011
0000010001111010
0000010001111010
0000010001111010
0000010001111001
0000010001111001
0000010001111001
0000010001111000
0000010001111000
0000010001111000
0000010001110111
0000010001110111
0000010001110111
0000010001110110
0000010001110110
0000010001110110
0000010001110101
0000010001110101
0000010001110101
0000010001110100
0000010001110100
0000010001110100
0000010001110100
0000010001110011
0000010001110011
0000010001110011
0000010001110010
0000010001110010
0000010001110010
0000010001110001
0000010001110001
0000010001110001
0000010001110000
0000010001110000
0000010001110000
0000010001101111
0000010001101111
0000010001101111
0000010001101110
0000010001101110
0000010001101110
0000010001101101
0000010001101101
0000010001101101
0000010001101101
0000010001101100
0000010001101100
0000010001101100
0000010001101011
0000010001101011
0000010001101011
0000010001101010
0000010001101010
0000010001101010
0000010001101001
0000010001101001
0000010001101001
0000010001101000
0000010001101000
0000010001101000
0000010001101000
0000010001100111
0000010001100111
0000010001100111
0000010001100110
0000010001100110
0000010001100110
0000010001100101
0000010001100101
0000010001100101
0000010001100100
0000010001100100
0000010001100100
0000010001100011
0000010001100011
0000010001100011
0000010001100011
0000010001100010
0000010001100010
0000010001100010
0000010001100001
0000010001100001
0000010001100001
0000010001100000
0000010001100000
0000010001100000
0000010001011111
0000010001011111
0000010001011111
0000010001011111
0000010001011110
0000010001011110
0000010001011110
0000010001011101
0000010001011101
0000010001011101
0000010001011100
0000010001011100
0000010001011100
0000010001011011
0000010001011011
0000010001011011
0000010001011011
0000010001011010
0000010001011010
0000010001011010
0000010001011001
0000010001011001
0000010001011001
0000010001011000
0000010001011000
0000010001011000
0000010001011000
0000010001010111
0000010001010111
0000010001010111
0000010001010110
0000010001010110
0000010001010110
0000010001010101
0000010001010101
0000010001010101
0000010001010101
0000010001010100
0000010001010100
0000010001010100
0000010001010011
0000010001010011
0000010001010011
0000010001010010
0000010001010010
0000010001010010
0000010001010010
0000010001010001
0000010001010001
0000010001010001
0000010001010000
0000010001010000
0000010001010000
0000010001001111
0000010001001111
0000010001001111
0000010001001111
0000010001001110
0000010001001110
0000010001001110
0000010001001101
0000010001001101
0000010001001101
0000010001001101
0000010001001100
0000010001001100
0000010001001100
0000010001001011
0000010001001011
0000010001001011
0000010001001010
0000010001001010
0000010001001010
0000010001001010
0000010001001001
0000010001001001
0000010001001001
0000010001001000
0000010001001000
0000010001001000
0000010001001000
0000010001000111
0000010001000111
0000010001000111
0000010001000110
0000010001000110
0000010001000110
0000010001000110
0000010001000101
0000010001000101
0000010001000101
0000010001000100
0000010001000100
0000010001000100
0000010001000011
0000010001000011
0000010001000011
0000010001000011
0000010001000010
0000010001000010
0000010001000010
0000010001000001
0000010001000001
0000010001000001
0000010001000001
0000010001000000
0000010001000000
0000010001000000
0000010000111111
0000010000111111
0000010000111111
0000010000111111
0000010000111110
0000010000111110
0000010000111110
0000010000111101
0000010000111101
0000010000111101
0000010000111101
0000010000111100
0000010000111100
0000010000111100
0000010000111011
0000010000111011
0000010000111011
0000010000111011
0000010000111010
0000010000111010
0000010000111010
0000010000111001
0000010000111001
0000010000111001
0000010000111001
0000010000111000
0000010000111000
0000010000111000
0000010000111000
0000010000110111
0000010000110111
0000010000110111
0000010000110110
0000010000110110
0000010000110110
0000010000110110
0000010000110101
0000010000110101
0000010000110101
0000010000110100
0000010000110100
0000010000110100
0000010000110100
0000010000110011
0000010000110011
0000010000110011
0000010000110010
0000010000110010
0000010000110010
0000010000110010
0000010000110001
0000010000110001
0000010000110001
0000010000110001
0000010000110000
0000010000110000
0000010000110000
0000010000101111
0000010000101111
0000010000101111
0000010000101111
0000010000101110
0000010000101110
0000010000101110
0000010000101101
0000010000101101
0000010000101101
0000010000101101
0000010000101100
0000010000101100
0000010000101100
0000010000101100
0000010000101011
0000010000101011
0000010000101011
0000010000101010
0000010000101010
0000010000101010
0000010000101010
0000010000101001
0000010000101001
0000010000101001
0000010000101001
0000010000101000
0000010000101000
0000010000101000
0000010000100111
0000010000100111
0000010000100111
0000010000100111
0000010000100110
0000010000100110
0000010000100110
0000010000100110
0000010000100101
0000010000100101
0000010000100101
0000010000100100
0000010000100100
0000010000100100
0000010000100100
0000010000100011
0000010000100011
0000010000100011
0000010000100011
0000010000100010
0000010000100010
0000010000100010
0000010000100010
0000010000100001
0000010000100001
0000010000100001
0000010000100000
0000010000100000
0000010000100000
0000010000100000
0000010000011111
0000010000011111
0000010000011111
0000010000011111
0000010000011110
0000010000011110
0000010000011110
0000010000011101
0000010000011101
0000010000011101
0000010000011101
0000010000011100
0000010000011100
0000010000011100
0000010000011100
0000010000011011
0000010000011011
0000010000011011
0000010000011011
0000010000011010
0000010000011010
0000010000011010
0000010000011010
0000010000011001
0000010000011001
0000010000011001
0000010000011000
0000010000011000
0000010000011000
0000010000011000
0000010000010111
0000010000010111
0000010000010111
0000010000010111
0000010000010110
0000010000010110
0000010000010110
0000010000010110
0000010000010101
0000010000010101
0000010000010101
0000010000010101
0000010000010100
0000010000010100
0000010000010100
0000010000010011
0000010000010011
0000010000010011
0000010000010011
0000010000010010
0000010000010010
0000010000010010
0000010000010010
0000010000010001
0000010000010001
0000010000010001
0000010000010001
0000010000010000
0000010000010000
0000010000010000
0000010000010000
0000010000001111
0000010000001111
0000010000001111
0000010000001111
0000010000001110
0000010000001110
0000010000001110
0000010000001101
0000010000001101
0000010000001101
0000010000001101
0000010000001100
0000010000001100
0000010000001100
0000010000001100
0000010000001011
0000010000001011
0000010000001011
0000010000001011
0000010000001010
0000010000001010
0000010000001010
0000010000001010
0000010000001001
0000010000001001
0000010000001001
0000010000001001
0000010000001000
0000010000001000
0000010000001000
0000010000001000
0000010000000111
0000010000000111
0000010000000111
0000010000000111
0000010000000110
0000010000000110
0000010000000110
0000010000000110
0000010000000101
0000010000000101
0000010000000101
0000010000000101
0000010000000100
0000010000000100
0000010000000100
0000010000000100
0000010000000011
0000010000000011
0000010000000011
0000010000000011
0000010000000010
0000010000000010
0000010000000010
0000010000000010
0000010000000001
0000010000000001
0000010000000001
0000010000000001
0000010000000000
0000010000000000
0000010000000000
0000010000000000
